{
  "base_vocab": [
    "\n",
    " ",
    "(",
    ")",
    ",",
    "-",
    ".",
    "0",
    "1",
    "2",
    "3",
    "4",
    "5",
    "6",
    "7",
    "8",
    "9",
    ":",
    ";",
    "?",
    "A",
    "B",
    "C",
    "D",
    "E",
    "F",
    "G",
    "H",
    "I",
    "J",
    "L",
    "M",
    "N",
    "O",
    "P",
    "R",
    "S",
    "T",
    "U",
    "V",
    "W",
    "X",
    "Y",
    "Z",
    "[",
    "]",
    "a",
    "b",
    "c",
    "d",
    "e",
    "f",
    "g",
    "h",
    "i",
    "j",
    "k",
    "l",
    "m",
    "n",
    "o",
    "p",
    "q",
    "r",
    "s",
    "t",
    "u",
    "v",
    "w",
    "x",
    "y",
    "z",
    "Æ",
    "æ",
    "ō",
    "α",
    "ε",
    "η",
    "ι",
    "κ",
    "λ",
    "μ",
    "ν",
    "ο",
    "π",
    "ρ",
    "ς",
    "σ",
    "τ",
    "υ",
    "χ",
    "ω",
    "ְ",
    "ָ",
    "ה",
    "ו",
    "ח",
    "י",
    "כ",
    "מ",
    "ἀ",
    "ἐ",
    "ἰ",
    "ὕ",
    "έ",
    "ή",
    "ί",
    "ό",
    "ύ",
    "ώ",
    "ᾶ",
    "ῃ",
    "ῆ",
    "ῤ",
    "ῥ",
    "ῳ",
    "—",
    "’",
    "“",
    "”"
  ],
  "merges": [
    [
      " ",
      "t"
    ],
    [
      "e",
      " "
    ],
    [
      " t",
      "h"
    ],
    [
      " ",
      "a"
    ],
    [
      "i",
      "n"
    ],
    [
      "e",
      "r"
    ],
    [
      "d",
      " "
    ],
    [
      "s",
      " "
    ],
    [
      " th",
      "e "
    ],
    [
      "t",
      " "
    ],
    [
      ",",
      " "
    ],
    [
      "e",
      "n"
    ],
    [
      "o",
      "n"
    ],
    [
      "o",
      "r"
    ],
    [
      "o",
      "f"
    ],
    [
      "e",
      "s"
    ],
    [
      "t",
      "h"
    ],
    [
      " a",
      "n"
    ],
    [
      "y",
      " "
    ],
    [
      "a",
      "t"
    ],
    [
      "o",
      "u"
    ],
    [
      "o",
      " "
    ],
    [
      " th",
      "e"
    ],
    [
      "in",
      "g"
    ],
    [
      "a",
      "l"
    ],
    [
      ".",
      " "
    ],
    [
      "w",
      "h"
    ],
    [
      "e",
      "d "
    ],
    [
      "o",
      "m"
    ],
    [
      "a",
      "n"
    ],
    [
      "e",
      "d"
    ],
    [
      "i",
      "s"
    ],
    [
      "r",
      "e"
    ],
    [
      " an",
      "d "
    ],
    [
      "i",
      "m"
    ],
    [
      "er",
      " "
    ],
    [
      "h",
      "a"
    ],
    [
      "i",
      "t"
    ],
    [
      "of",
      " "
    ],
    [
      "a",
      "r"
    ],
    [
      "i",
      "on"
    ],
    [
      "a",
      "t "
    ],
    [
      "i",
      "r"
    ],
    [
      " ",
      " "
    ],
    [
      "b",
      "e"
    ],
    [
      "s",
      "e"
    ],
    [
      " th",
      "at "
    ],
    [
      "l",
      "l"
    ],
    [
      " t",
      "o "
    ],
    [
      "i",
      "c"
    ],
    [
      "o",
      "th"
    ],
    [
      "i",
      "s "
    ],
    [
      "s",
      "t"
    ],
    [
      "h",
      "e "
    ],
    [
      " ",
      "s"
    ],
    [
      "f",
      "or"
    ],
    [
      ",",
      " and "
    ],
    [
      "u",
      "r"
    ],
    [
      "p",
      "r"
    ],
    [
      "a",
      "s"
    ],
    [
      "w",
      "i"
    ],
    [
      " t",
      "o"
    ],
    [
      "a",
      "in"
    ],
    [
      "of",
      " the "
    ],
    [
      "2",
      "7"
    ],
    [
      "c",
      "e"
    ],
    [
      "g",
      "h"
    ],
    [
      "ing",
      " "
    ],
    [
      "o",
      "w"
    ],
    [
      "o",
      "s"
    ],
    [
      "b",
      "l"
    ],
    [
      "e",
      "c"
    ],
    [
      "f",
      "r"
    ],
    [
      ".",
      "\n"
    ],
    [
      "en",
      " "
    ],
    [
      ",",
      " a"
    ],
    [
      "wi",
      "th"
    ],
    [
      " ",
      "h"
    ],
    [
      "i",
      "v"
    ],
    [
      "ic",
      "h"
    ],
    [
      "w",
      "a"
    ],
    [
      "wh",
      "ich"
    ],
    [
      "fr",
      "om"
    ],
    [
      " the",
      "m"
    ],
    [
      " th",
      "at"
    ],
    [
      "e",
      "m"
    ],
    [
      "en",
      "t"
    ],
    [
      " the",
      "y "
    ],
    [
      "u",
      "s"
    ],
    [
      ". ",
      "T"
    ],
    [
      "a",
      "m"
    ],
    [
      "e",
      "x"
    ],
    [
      "ou",
      "r"
    ],
    [
      "c",
      "on"
    ],
    [
      "s",
      "p"
    ],
    [
      "i",
      "l"
    ],
    [
      "pr",
      "o"
    ],
    [
      "al",
      "l"
    ],
    [
      "v",
      "e "
    ],
    [
      "b",
      "u"
    ],
    [
      "s",
      "u"
    ],
    [
      "wa",
      "s "
    ],
    [
      "b",
      "y"
    ],
    [
      "b",
      "y "
    ],
    [
      "n",
      "o"
    ],
    [
      " an",
      "d"
    ],
    [
      "al",
      " "
    ],
    [
      "h",
      "e"
    ],
    [
      "i",
      "t "
    ],
    [
      "p",
      "l"
    ],
    [
      ", ",
      "wh"
    ],
    [
      "v",
      "er"
    ],
    [
      "er",
      "e "
    ],
    [
      "m",
      "oth"
    ],
    [
      "ou",
      "l"
    ],
    [
      "se",
      "l"
    ],
    [
      " a",
      "ll"
    ],
    [
      "c",
      "e "
    ],
    [
      "in",
      "t"
    ],
    [
      "u",
      "n"
    ],
    [
      " to",
      " the "
    ],
    [
      "en",
      "d"
    ],
    [
      "in",
      " "
    ],
    [
      "ou",
      "gh"
    ],
    [
      "c",
      "h"
    ],
    [
      "v",
      "i"
    ],
    [
      "  ",
      "  "
    ],
    [
      " the",
      "ir"
    ],
    [
      "is",
      "t"
    ],
    [
      "r",
      "i"
    ],
    [
      "t",
      "ain"
    ],
    [
      "which",
      " "
    ],
    [
      ", ",
      "s"
    ],
    [
      "C",
      "h"
    ],
    [
      "c",
      "t"
    ],
    [
      "ha",
      "ve "
    ],
    [
      "no",
      "t "
    ],
    [
      "F",
      "or"
    ],
    [
      "a",
      "k"
    ],
    [
      "d",
      "e"
    ],
    [
      "l",
      "y "
    ],
    [
      "y",
      " a"
    ],
    [
      " th",
      "is "
    ],
    [
      "at",
      "ion"
    ],
    [
      "p",
      "os"
    ],
    [
      "b",
      "e "
    ],
    [
      "es",
      "s"
    ],
    [
      "r",
      "u"
    ],
    [
      " th",
      "es"
    ],
    [
      "a",
      "d"
    ],
    [
      "g",
      "e"
    ],
    [
      "r",
      "ough"
    ],
    [
      ".",
      "”"
    ],
    [
      "Ch",
      "r"
    ],
    [
      "bl",
      "e "
    ],
    [
      "i",
      "f"
    ],
    [
      "o",
      "l"
    ],
    [
      "v",
      "e"
    ],
    [
      "w",
      "or"
    ],
    [
      " ",
      "m"
    ],
    [
      " a",
      "s "
    ],
    [
      "i",
      "g"
    ],
    [
      "i",
      "gh"
    ],
    [
      "wh",
      "o "
    ],
    [
      ",",
      " and"
    ],
    [
      ",",
      " the "
    ],
    [
      "c",
      "c"
    ],
    [
      "o",
      "d"
    ],
    [
      "r",
      "e "
    ],
    [
      "27",
      "4"
    ],
    [
      "es",
      "t"
    ],
    [
      "ir",
      "it"
    ],
    [
      "oth",
      "er"
    ],
    [
      "s",
      ", "
    ],
    [
      ". ",
      "For"
    ],
    [
      "c",
      "ha"
    ],
    [
      "ec",
      "t"
    ],
    [
      "en",
      "t "
    ],
    [
      "for",
      "m"
    ],
    [
      " a",
      "s"
    ],
    [
      "be",
      "c"
    ],
    [
      "f",
      "er"
    ],
    [
      "p",
      "as"
    ],
    [
      "sel",
      "f"
    ],
    [
      "in",
      " the "
    ],
    [
      "p",
      "t"
    ],
    [
      "u",
      "s "
    ],
    [
      ".\n",
      "\n"
    ],
    [
      "A",
      "cha"
    ],
    [
      "Acha",
      "moth"
    ],
    [
      "by",
      " the "
    ],
    [
      "d",
      "o"
    ],
    [
      "h",
      "all"
    ],
    [
      "or",
      "d"
    ],
    [
      "ou",
      "n"
    ],
    [
      "p",
      "er"
    ],
    [
      "with",
      " "
    ],
    [
      "bu",
      "t "
    ],
    [
      "irit",
      "u"
    ],
    [
      "l",
      "es"
    ],
    [
      "n",
      "at"
    ],
    [
      " their",
      " "
    ],
    [
      "D",
      "em"
    ],
    [
      "Dem",
      "i"
    ],
    [
      "Demi",
      "ur"
    ],
    [
      "on",
      "e "
    ],
    [
      "oul",
      "d "
    ],
    [
      " thes",
      "e "
    ],
    [
      "ce",
      "iv"
    ],
    [
      "e",
      "l"
    ],
    [
      "h",
      "im"
    ],
    [
      "s",
      "o "
    ],
    [
      " a",
      "re "
    ],
    [
      " the",
      " t"
    ],
    [
      "P",
      "l"
    ],
    [
      "S",
      "a"
    ],
    [
      "Sa",
      "vi"
    ],
    [
      "Savi",
      "our"
    ],
    [
      "h",
      "er"
    ],
    [
      "pl",
      "a"
    ],
    [
      " th",
      "ing"
    ],
    [
      " th",
      "rough"
    ],
    [
      ",",
      " th"
    ],
    [
      "e",
      "s "
    ],
    [
      ";",
      " "
    ],
    [
      "Pl",
      "er"
    ],
    [
      "Pler",
      "om"
    ],
    [
      "Plerom",
      "a"
    ],
    [
      "m",
      "e"
    ],
    [
      " a",
      " "
    ],
    [
      ". T",
      "he "
    ],
    [
      "B",
      "u"
    ],
    [
      "Chr",
      "ist"
    ],
    [
      "be",
      "en "
    ],
    [
      "d",
      "er"
    ],
    [
      "g",
      "o"
    ],
    [
      "ll",
      " "
    ],
    [
      "om",
      "e "
    ],
    [
      "s ",
      "of "
    ],
    [
      " an",
      "im"
    ],
    [
      " that",
      " the "
    ],
    [
      "A",
      "n"
    ],
    [
      "ed",
      " the "
    ],
    [
      "f",
      "ir"
    ],
    [
      "ha",
      "d "
    ],
    [
      "p",
      "ar"
    ],
    [
      "pro",
      "p"
    ],
    [
      ",",
      " they "
    ],
    [
      ", wh",
      "il"
    ],
    [
      "H",
      "e "
    ],
    [
      "bl",
      "e"
    ],
    [
      "d",
      "es"
    ],
    [
      "hall",
      " "
    ],
    [
      "m",
      "an"
    ],
    [
      "on",
      "g"
    ],
    [
      "pas",
      "s"
    ],
    [
      "st",
      "an"
    ],
    [
      "t",
      "er"
    ],
    [
      "w",
      "as"
    ],
    [
      "from",
      " "
    ],
    [
      "h",
      "er "
    ],
    [
      "ion",
      " "
    ],
    [
      "k",
      "n"
    ],
    [
      "m",
      "ain"
    ],
    [
      "m",
      "en"
    ],
    [
      "n",
      "am"
    ],
    [
      "q",
      "u"
    ],
    [
      "re",
      "ceiv"
    ],
    [
      "sp",
      "iritu"
    ],
    [
      "th",
      "er"
    ],
    [
      "u",
      "p"
    ],
    [
      " the",
      "y a"
    ],
    [
      ".",
      ", "
    ],
    [
      "be",
      "ing "
    ],
    [
      "bu",
      "t"
    ],
    [
      "c",
      "l"
    ],
    [
      "ct",
      "ion"
    ],
    [
      "e ",
      "of "
    ],
    [
      "g",
      "ain"
    ],
    [
      "in",
      "d"
    ],
    [
      "o",
      "ll"
    ],
    [
      "or",
      "d "
    ],
    [
      "s",
      "o"
    ],
    [
      "u",
      "l"
    ],
    [
      "u",
      "re"
    ],
    [
      "wor",
      "l"
    ],
    [
      " th",
      "os"
    ],
    [
      ", a",
      "s "
    ],
    [
      ".\n",
      "27"
    ],
    [
      "e",
      "ar"
    ],
    [
      "e",
      "v"
    ],
    [
      "en",
      "ce"
    ],
    [
      "h",
      "i"
    ],
    [
      "i",
      "ble "
    ],
    [
      "me",
      "an"
    ],
    [
      "u",
      "ch"
    ],
    [
      "w",
      "ere "
    ],
    [
      " ",
      "of "
    ],
    [
      " a",
      "l"
    ],
    [
      " h",
      "im"
    ],
    [
      " s",
      "p"
    ],
    [
      " thos",
      "e "
    ],
    [
      ",",
      " that "
    ],
    [
      ". ",
      "Bu"
    ],
    [
      ". T",
      "h"
    ],
    [
      ". T",
      "he"
    ],
    [
      "a",
      "p"
    ],
    [
      "c",
      "ri"
    ],
    [
      "e ",
      "of the "
    ],
    [
      "igh",
      "t "
    ],
    [
      "l",
      "i"
    ],
    [
      "m",
      "a"
    ],
    [
      "r",
      "es"
    ],
    [
      " the ",
      "s"
    ],
    [
      ", a",
      "cc"
    ],
    [
      "at",
      "e"
    ],
    [
      "b",
      "stan"
    ],
    [
      "d",
      "u"
    ],
    [
      "e",
      "t"
    ],
    [
      "form",
      "ed "
    ],
    [
      "int",
      "er"
    ],
    [
      "m",
      "at"
    ],
    [
      "main",
      "tain"
    ],
    [
      "o",
      "p"
    ],
    [
      "s",
      "a"
    ],
    [
      "s ",
      "of"
    ],
    [
      "th",
      " "
    ],
    [
      "ver",
      "y "
    ],
    [
      " a",
      "b"
    ],
    [
      ", ",
      "but "
    ],
    [
      "a",
      "ble "
    ],
    [
      "c",
      "om"
    ],
    [
      "er",
      "i"
    ],
    [
      "kn",
      "ow"
    ],
    [
      "m",
      "ed"
    ],
    [
      "pos",
      "s"
    ],
    [
      "t ",
      "of"
    ],
    [
      "th",
      "er "
    ],
    [
      "w",
      "ould "
    ],
    [
      " thing",
      "s "
    ],
    [
      ", acc",
      "ord"
    ],
    [
      ", accord",
      "ing"
    ],
    [
      ".\n",
      "“"
    ],
    [
      ". ",
      "An"
    ],
    [
      ".”",
      "—"
    ],
    [
      "al",
      " s"
    ],
    [
      "an",
      "d "
    ],
    [
      "e",
      "f"
    ],
    [
      "e ",
      "s"
    ],
    [
      "ec",
      "i"
    ],
    [
      "en",
      "s"
    ],
    [
      "f",
      "oll"
    ],
    [
      "foll",
      "ow"
    ],
    [
      "from",
      " the "
    ],
    [
      "i",
      ". "
    ],
    [
      "i",
      "d"
    ],
    [
      "l",
      "y"
    ],
    [
      "o",
      "g"
    ],
    [
      "oth",
      "er "
    ],
    [
      "r",
      "o"
    ],
    [
      "t",
      "t"
    ],
    [
      "y",
      "p"
    ],
    [
      " h",
      "er "
    ],
    [
      " the t",
      "ru"
    ],
    [
      "a",
      "c"
    ],
    [
      "b",
      "it"
    ],
    [
      "c",
      "er"
    ],
    [
      "e",
      "a"
    ],
    [
      "f",
      "les"
    ],
    [
      "fles",
      "h"
    ],
    [
      "him",
      "self"
    ],
    [
      "it",
      "s "
    ],
    [
      "l",
      "ed"
    ],
    [
      "m",
      "ent"
    ],
    [
      "n",
      "o "
    ],
    [
      "nat",
      "ur"
    ],
    [
      "o",
      "ve"
    ],
    [
      "ou",
      "t"
    ],
    [
      "ow",
      "n"
    ],
    [
      " h",
      "is "
    ],
    [
      ", ",
      "he "
    ],
    [
      ". ",
      "I"
    ],
    [
      "Demiur",
      "g"
    ],
    [
      "Demiur",
      "ge"
    ],
    [
      "Demiurg",
      "e "
    ],
    [
      "G",
      "od"
    ],
    [
      "W",
      "ord "
    ],
    [
      "a",
      "ther"
    ],
    [
      "an",
      " "
    ]
  ],
  "special_tokens": [
    "<pad>",
    "<bos>",
    "<eos>"
  ],
  "token_strings": {
    "0": "\n",
    "1": " ",
    "10": "3",
    "100": "ἀ",
    "101": "ἐ",
    "102": "ἰ",
    "103": "ὕ",
    "104": "έ",
    "105": "ή",
    "106": "ί",
    "107": "ό",
    "108": "ύ",
    "109": "ώ",
    "11": "4",
    "110": "ᾶ",
    "111": "ῃ",
    "112": "ῆ",
    "113": "ῤ",
    "114": "ῥ",
    "115": "ῳ",
    "116": "—",
    "117": "’",
    "118": "“",
    "119": "”",
    "12": "5",
    "120": "<pad>",
    "121": "<bos>",
    "122": "<eos>",
    "123": " t",
    "124": "e ",
    "125": " th",
    "126": " a",
    "127": "in",
    "128": "er",
    "129": "d ",
    "13": "6",
    "130": "s ",
    "131": " the ",
    "132": "t ",
    "133": ", ",
    "134": "en",
    "135": "on",
    "136": "or",
    "137": "of",
    "138": "es",
    "139": "th",
    "14": "7",
    "140": " an",
    "141": "y ",
    "142": "at",
    "143": "ou",
    "144": "o ",
    "145": " the",
    "146": "ing",
    "147": "al",
    "148": ". ",
    "149": "wh",
    "15": "8",
    "150": "ed ",
    "151": "om",
    "152": "an",
    "153": "ed",
    "154": "is",
    "155": "re",
    "156": " and ",
    "157": "im",
    "158": "er ",
    "159": "ha",
    "16": "9",
    "160": "it",
    "161": "of ",
    "162": "ar",
    "163": "ion",
    "164": "at ",
    "165": "ir",
    "166": "  ",
    "167": "be",
    "168": "se",
    "169": " that ",
    "17": ":",
    "170": "ll",
    "171": " to ",
    "172": "ic",
    "173": "oth",
    "174": "is ",
    "175": "st",
    "176": "he ",
    "177": " s",
    "178": "for",
    "179": ", and ",
    "18": ";",
    "180": "ur",
    "181": "pr",
    "182": "as",
    "183": "wi",
    "184": " to",
    "185": "ain",
    "186": "of the ",
    "187": "27",
    "188": "ce",
    "189": "gh",
    "19": "?",
    "190": "ing ",
    "191": "ow",
    "192": "os",
    "193": "bl",
    "194": "ec",
    "195": "fr",
    "196": ".\n",
    "197": "en ",
    "198": ", a",
    "199": "with",
    "2": "(",
    "20": "A",
    "200": " h",
    "201": "iv",
    "202": "ich",
    "203": "wa",
    "204": "which",
    "205": "from",
    "206": " them",
    "207": " that",
    "208": "em",
    "209": "ent",
    "21": "B",
    "210": " they ",
    "211": "us",
    "212": ". T",
    "213": "am",
    "214": "ex",
    "215": "our",
    "216": "con",
    "217": "sp",
    "218": "il",
    "219": "pro",
    "22": "C",
    "220": "all",
    "221": "ve ",
    "222": "bu",
    "223": "su",
    "224": "was ",
    "225": "by",
    "226": "by ",
    "227": "no",
    "228": " and",
    "229": "al ",
    "23": "D",
    "230": "he",
    "231": "it ",
    "232": "pl",
    "233": ", wh",
    "234": "ver",
    "235": "ere ",
    "236": "moth",
    "237": "oul",
    "238": "sel",
    "239": " all",
    "24": "E",
    "240": "ce ",
    "241": "int",
    "242": "un",
    "243": " to the ",
    "244": "end",
    "245": "in ",
    "246": "ough",
    "247": "ch",
    "248": "vi",
    "249": "    ",
    "25": "F",
    "250": " their",
    "251": "ist",
    "252": "ri",
    "253": "tain",
    "254": "which ",
    "255": ", s",
    "256": "Ch",
    "257": "ct",
    "258": "have ",
    "259": "not ",
    "26": "G",
    "260": "For",
    "261": "ak",
    "262": "de",
    "263": "ly ",
    "264": "y a",
    "265": " this ",
    "266": "ation",
    "267": "pos",
    "268": "be ",
    "269": "ess",
    "27": "H",
    "270": "ru",
    "271": " thes",
    "272": "ad",
    "273": "ge",
    "274": "rough",
    "275": ".”",
    "276": "Chr",
    "277": "ble ",
    "278": "if",
    "279": "ol",
    "28": "I",
    "280": "ve",
    "281": "wor",
    "282": " m",
    "283": " as ",
    "284": "ig",
    "285": "igh",
    "286": "who ",
    "287": ", and",
    "288": ", the ",
    "289": "cc",
    "29": "J",
    "290": "od",
    "291": "re ",
    "292": "274",
    "293": "est",
    "294": "irit",
    "295": "other",
    "296": "s, ",
    "297": ". For",
    "298": "cha",
    "299": "ect",
    "3": ")",
    "30": "L",
    "300": "ent ",
    "301": "form",
    "302": " as",
    "303": "bec",
    "304": "fer",
    "305": "pas",
    "306": "self",
    "307": "in the ",
    "308": "pt",
    "309": "us ",
    "31": "M",
    "310": ".\n\n",
    "311": "Acha",
    "312": "Achamoth",
    "313": "by the ",
    "314": "do",
    "315": "hall",
    "316": "ord",
    "317": "oun",
    "318": "per",
    "319": "with ",
    "32": "N",
    "320": "but ",
    "321": "iritu",
    "322": "les",
    "323": "nat",
    "324": " their ",
    "325": "Dem",
    "326": "Demi",
    "327": "Demiur",
    "328": "one ",
    "329": "ould ",
    "33": "O",
    "330": " these ",
    "331": "ceiv",
    "332": "el",
    "333": "him",
    "334": "so ",
    "335": " are ",
    "336": " the t",
    "337": "Pl",
    "338": "Sa",
    "339": "Savi",
    "34": "P",
    "340": "Saviour",
    "341": "her",
    "342": "pla",
    "343": " thing",
    "344": " through",
    "345": ", th",
    "346": "es ",
    "347": "; ",
    "348": "Pler",
    "349": "Plerom",
    "35": "R",
    "350": "Pleroma",
    "351": "me",
    "352": " a ",
    "353": ". The ",
    "354": "Bu",
    "355": "Christ",
    "356": "been ",
    "357": "der",
    "358": "go",
    "359": "ll ",
    "36": "S",
    "360": "ome ",
    "361": "s of ",
    "362": " anim",
    "363": " that the ",
    "364": "An",
    "365": "ed the ",
    "366": "fir",
    "367": "had ",
    "368": "par",
    "369": "prop",
    "37": "T",
    "370": ", they ",
    "371": ", whil",
    "372": "He ",
    "373": "ble",
    "374": "des",
    "375": "hall ",
    "376": "man",
    "377": "ong",
    "378": "pass",
    "379": "stan",
    "38": "U",
    "380": "ter",
    "381": "was",
    "382": "from ",
    "383": "her ",
    "384": "ion ",
    "385": "kn",
    "386": "main",
    "387": "men",
    "388": "nam",
    "389": "qu",
    "39": "V",
    "390": "receiv",
    "391": "spiritu",
    "392": "ther",
    "393": "up",
    "394": " they a",
    "395": "., ",
    "396": "being ",
    "397": "but",
    "398": "cl",
    "399": "ction",
    "4": ",",
    "40": "W",
    "400": "e of ",
    "401": "gain",
    "402": "ind",
    "403": "oll",
    "404": "ord ",
    "405": "so",
    "406": "ul",
    "407": "ure",
    "408": "worl",
    "409": " thos",
    "41": "X",
    "410": ", as ",
    "411": ".\n27",
    "412": "ear",
    "413": "ev",
    "414": "ence",
    "415": "hi",
    "416": "ible ",
    "417": "mean",
    "418": "uch",
    "419": "were ",
    "42": "Y",
    "420": " of ",
    "421": " al",
    "422": " him",
    "423": " sp",
    "424": " those ",
    "425": ", that ",
    "426": ". Bu",
    "427": ". Th",
    "428": ". The",
    "429": "ap",
    "43": "Z",
    "430": "cri",
    "431": "e of the ",
    "432": "ight ",
    "433": "li",
    "434": "ma",
    "435": "res",
    "436": " the s",
    "437": ", acc",
    "438": "ate",
    "439": "bstan",
    "44": "[",
    "440": "du",
    "441": "et",
    "442": "formed ",
    "443": "inter",
    "444": "mat",
    "445": "maintain",
    "446": "op",
    "447": "sa",
    "448": "s of",
    "449": "th ",
    "45": "]",
    "450": "very ",
    "451": " ab",
    "452": ", but ",
    "453": "able ",
    "454": "com",
    "455": "eri",
    "456": "know",
    "457": "med",
    "458": "poss",
    "459": "t of",
    "46": "a",
    "460": "ther ",
    "461": "would ",
    "462": " things ",
    "463": ", accord",
    "464": ", according",
    "465": ".\n“",
    "466": ". An",
    "467": ".”—",
    "468": "al s",
    "469": "and ",
    "47": "b",
    "470": "ef",
    "471": "e s",
    "472": "eci",
    "473": "ens",
    "474": "foll",
    "475": "follow",
    "476": "from the ",
    "477": "i. ",
    "478": "id",
    "479": "ly",
    "48": "c",
    "480": "og",
    "481": "other ",
    "482": "ro",
    "483": "tt",
    "484": "yp",
    "485": " her ",
    "486": " the tru",
    "487": "ac",
    "488": "bit",
    "489": "cer",
    "49": "d",
    "490": "ea",
    "491": "fles",
    "492": "flesh",
    "493": "himself",
    "494": "its ",
    "495": "led",
    "496": "ment",
    "497": "no ",
    "498": "natur",
    "499": "ove",
    "5": "-",
    "50": "e",
    "500": "out",
    "501": "own",
    "502": " his ",
    "503": ", he ",
    "504": ". I",
    "505": "Demiurg",
    "506": "Demiurge",
    "507": "Demiurge ",
    "508": "God",
    "509": "Word ",
    "51": "f",
    "510": "ather",
    "511": "an ",
    "52": "g",
    "53": "h",
    "54": "i",
    "55": "j",
    "56": "k",
    "57": "l",
    "58": "m",
    "59": "n",
    "6": ".",
    "60": "o",
    "61": "p",
    "62": "q",
    "63": "r",
    "64": "s",
    "65": "t",
    "66": "u",
    "67": "v",
    "68": "w",
    "69": "x",
    "7": "0",
    "70": "y",
    "71": "z",
    "72": "Æ",
    "73": "æ",
    "74": "ō",
    "75": "α",
    "76": "ε",
    "77": "η",
    "78": "ι",
    "79": "κ",
    "8": "1",
    "80": "λ",
    "81": "μ",
    "82": "ν",
    "83": "ο",
    "84": "π",
    "85": "ρ",
    "86": "ς",
    "87": "σ",
    "88": "τ",
    "89": "υ",
    "9": "2",
    "90": "χ",
    "91": "ω",
    "92": "ְ",
    "93": "ָ",
    "94": "ה",
    "95": "ו",
    "96": "ח",
    "97": "י",
    "98": "כ",
    "99": "מ"
  },
  "type": "character_level_bpe",
  "version": 2
}